00010101
00020202
00030303
00040404
00050505
00060606
00070707
00080808
00090909
000a0a0a
000b0b0b
000c0c0c
000d0d0d
000e0e0e
000f0f0f
00101010
00111111
00121212
00131313
00141414
00151515
00161616
00171717
00181818
00191919
001a1a1a
001b1b1b
001c1c1c
001d1d1d
001e1e1e
001f1f1f